memory_initialization_radix=2;
memory_initialization_vector=
10110110001110100110111100110110,
00000000000000000000000000000000,
00000000000000000000000000000000,
00000000000000000000000000000000,
00000000000000000000000000000000,
00000000000000000000000000000000,
00000000000000000000000000000000,
00000000000000000000000000000000,
00000000000000000000000000000000,
00000000000000000000000000000000,
00000000000000000000000000000000,
00000000000000000000000000000000,
00000000000000000000000000000000,
10110011110101111100111111000001,
10110110000100011010110000111100,
10110110000100011010110000111100,
10110011110000100011101011111011,
00000000000000000000000000000000,
00000000000000000000000000000000,
00000000000000000000000000000000,
00000000000000000000000000000000,
00000000000000000000000000000000,
00000000000000000000000000000000,
00000000000000000000000000000000,
00000000000000000000000000000000,
00000000000000000000000000000000,
00000000000000000000000000000000,
00000000000000000000000000000000,
00000000000000000000000000000000,
00000000000000000000000000000000,
00000000000000000000000000000000,
00000000000000000000000000000000,
00000000000000000000000000000000,
00000000000000000000000000000000,
00000000000000000000000000000000,
00000000000000000000000000000000,
10110110000000000001110111011111,
10111000101110000101000001000000,
10111000100100011001101011111101,
10111000001000000001000001010100,
10110111000011100010000111010100,
10110110110110100010110000000111,
10110110111000000011110111011111,
00110110101101001001010001010110,
10111000010011011111011100011111,
10111001111111001111000001010111,
10111001000001011110000000110111,
10110101011010110100100010001011,
00000000000000000000000000000000,
00000000000000000000000000000000,
00000000000000000000000000000000,
00000000000000000000000000000000,
00000000000000000000000000000000,
00000000000000000000000000000000,
00000000000000000000000000000000,
00000000000000000000000000000000,
00000000000000000000000000000000,
00000000000000000000000000000000,
00000000000000000000000000000000,
00000000000000000000000000000000,
10110100100111000111011010011111,
10110011110101111100111111000001,
10110100111100101100100110111010,
10110110101101101100001111110001,
10111000010101101101101110111100,
10111001110001100010111101000111,
10111010001010101100001000110000,
10111010000100001111000000110111,
10111010010010000101011111000010,
10111001011011001011011101000011,
00111001100111100010110110000100,
10111001110000000101001010110011,
00111010101011011000010101101111,
00111010010101100011101011111001,
00111001101010010101101011011011,
00111001100101101100010100110000,
00111001111110100111100011101001,
00111000111010010001000100100110,
10110110000101011011100000100001,
10110100000000010111110010100111,
10110110000111010010001101000110,
10110110011010101011000111101111,
10110101110111101000111001000000,
00000000000000000000000000000000,
00000000000000000000000000000000,
00000000000000000000000000000000,
00000000000000000000000000000000,
00110101100110110001111011000110,
10110101001110100010001010000000,
10110110000111011100111111101100,
10110111111010001001011001101000,
10111001010010001101100100111000,
10111010001101110000101000100000,
10111010101100011010101111111100,
10111011000100110100101000110101,
10111011100000100110110111011100,
10111011110001011001101101011101,
10111011101000111000110100010010,
10111011100101011000011110110110,
10111011011101000001000011110100,
10111010100010011100111010010011,
00111001100100011101101001000110,
10111010010100011110100011001111,
10111001011000100000111101101110,
00111001110111111100100001110111,
00111001010001001100000000000100,
10110111001111100111110101100110,
10111000100110101100100001011000,
10110110110010001001111100101100,
10110110101101110001101001000101,
10110110000111111101010111011111,
00000000000000000000000000000000,
00000000000000000000000000000000,
00000000000000000000000000000000,
10110100110011010000010101011110,
00110110010101011100110001001011,
10110110100100110000010100111011,
00111000000010100110000001000001,
00111001001101000000001000111101,
10111010001100011010010000111001,
10111010110111110011001100001001,
10111011001100110011111101111010,
10111011101111011100101001000001,
10111100000101000000101111001011,
10111100001111101100111101001110,
10111100000110110111001111010101,
10111011100010000001101111100010,
00111001000001110011011111011011,
00111010000011000011000100010001,
00111001000010000001000001101000,
10111001101111011011111000000001,
00111010010111110011010000100111,
00111011010000010001110111010001,
00111011100011011110000001010101,
00111011100011111110010100001001,
00111011010100010010100110000011,
00111011000011010000010010001110,
00111010000010100110111011010101,
10110110100001010011001000111001,
00000000000000000000000000000000,
00000000000000000000000000000000,
00000000000000000000000000000000,
00000000000000000000000000000000,
00110101010110101000100011111100,
10110111010001001101111101011111,
10111000001100000011011001011010,
00111000001000111011101110100000,
10111010111010001000101000111000,
10111011100011001111111111010111,
10111100000000010100000101011001,
10111100010000101110110010110011,
10111100011011010010011110001110,
10111100100100101010001001001011,
10111100011101011101111111111111,
10111100000000111111001001111111,
10111011001101011101100000101001,
10111011100010001000100010000100,
10111100000011011000101101000111,
10111011100101010010111001101001,
10111010111111101000010100001101,
00111010111100110110100100111100,
00111011101110011011011110011101,
00111011111110100101001101101111,
00111011111100100001111111010110,
00111011101110011010011001100111,
00111011001011110101110110001010,
00110111110000010111111101100011,
00110101110101100111100001001010,
00000000000000000000000000000000,
00000000000000000000000000000000,
10110011111011010110010010001000,
10111001100011100011100101000001,
10111001110001100010001010011110,
10111010010011110100111111001010,
10111010111100010001010000111100,
10111011100011011101000100010100,
10111100000000101011001010010010,
10111100001101000100101111011100,
10111100011001000110111011100110,
10111100011101100110000100010100,
10111100100000110101101000000111,
10111100011110010111001010011011,
10111100010110010010110000111011,
10111100001010111001100101000011,
10111100000101011011001010010001,
10111100010001101000000000010011,
10111100000110110011011001000100,
10111011110111010110111001000100,
10111011001011010111001110011111,
00111011010000101000111001111111,
00111011100111010011011000100100,
00111011101110111100110010000011,
00111011101111010010010001101001,
00111011001111001110000010100000,
10111000001000110100001110011010,
10110101110011100101111010101011,
10110101010001001110110110010100,
00000000000000000000000000000000,
10110110101010101111011010010101,
10111001001101110100101001010000,
10111001101111110111010010111100,
10111010100001000000110110001111,
10111011011000000011110111100100,
10111011110100110100010110111101,
10111100000101101101100010001001,
10111100010001011111011110101010,
10111100001101001110001001001110,
10111100001011110001011101101110,
10111100010001110100110101110010,
10111100001010001101110101111000,
10111100001010100001110010110101,
10111011111011111111101111101001,
10111100000000110111101000000110,
10111100001110011011001001101101,
10111100000110000000000000011001,
10111100000000101111011010010110,
10111011101000111110011001011110,
10111010101000001001001001000000,
00111010010100001111100001011010,
00111011011010001110000111010111,
00111011101000010111000101010101,
00111010111001000110000000111001,
10111000001011100111010000101010,
00110100110000100011111110001011,
10110101110011111011011111110111,
10110101000011101111100110100011,
10110110001100101011100000001100,
10111000000100000011010110011000,
10111001010101110100000011000000,
10111010101000011101010100110111,
10111011011000100001010000111010,
10111011110011000001110101011000,
10111011111100110000011101011011,
10111100000010111111000100011110,
10111100000110101001010001011011,
10111100000000111111101100010001,
10111011101110000110011111001100,
10111011001110010000001111001101,
10111001100011011111001001101101,
00111010000100100001011111000101,
10111010100100111001010101111000,
10111100000000111101011100101110,
10111011111001100011000110111110,
10111011101001110100100100001000,
10111011110100011011111011100010,
10111011110000001000010011110100,
10111011011010000100110100110010,
00111010000100101010001110000100,
00111010111000000000110010101010,
00111010010111100010111111001011,
10110111000011110100111111110110,
00000000000000000000000000000000,
00000000000000000000000000000000,
00000000000000000000000000000000,
00110100101011001011000101100101,
10110111111011011111101001010001,
10111001010100100100001011110111,
10111010110001111001010110010100,
10111011100001011111101001000100,
10111011110000100111011000111100,
10111011110111011110011101111000,
10111011111011101110111101101000,
10111011111001011011000111000101,
10111011001000000110100001001100,
00111011001110101001100111001101,
00111011110010010100011110011011,
00111100000110101011011110000111,
00111100001010110110101010010000,
00111011101011111110111101100101,
10111011100100010000001110000101,
10111011100110101010100011111111,
10111011010101011001010000011100,
10111011111010101111100111111101,
10111100000011101110001001100001,
10111011110100011001100010010011,
10111011100000011010111011110001,
10111010110101001011011000111111,
10111001011000011101101010111001,
10111000011010100000101100011110,
10111000100100110110101111111111,
00000000000000000000000000000000,
00000000000000000000000000000000,
00110110010001100100100100101100,
10110111100011110000110100010010,
10111001111010001011111111010111,
10111010101101111110010111010010,
10111011011101111010010101101110,
10111011110010000011101111010001,
10111011111101011100110110011000,
10111011111000111100101001001110,
10111011100101000001011000100000,
00111000011110111011100000011110,
00111011111001011101000101100011,
00111100010010001010101010100100,
00111100100010011000110011011110,
00111100011111111001100111011011,
00111100000100010110001001110100,
10111010111011010010111110000000,
10111011000000101010000010011111,
10111011011001100010001001011010,
10111011110111101011001101000111,
10111100000111100000111010110110,
10111100000110000101001011100111,
10111011111110100000110100100001,
10111011100001110100101100100010,
10111010101101011100000011010110,
10111001011010011011010010100000,
10111001001001010001011010000111,
00110101100110011100010101010111,
00000000000000000000000000000000,
00110101010011010000100110100110,
10110110100111001100110010011111,
10111001100100000110101111000110,
10111010010011100110101100011101,
10111011001010101001100110001100,
10111011101111111110001000111111,
10111011111101100001001001111111,
10111011110111001101111001111001,
10111011100110001010001110110011,
00111010010111111011001011111000,
00111011111010000010111101010101,
00111100010101010011011011110011,
00111100100100100100100000110011,
00111100100000110010011101010110,
00111100001000111000110111000000,
00111000110110101111101010011000,
00111000111000011011111101111001,
10111010101110010000000101010011,
10111011110110001000010100111010,
10111100001001000010111010100001,
10111100001100111100010110001001,
10111100000011110000010101011000,
10111011101000000001011010001000,
10111010110110000001011111110010,
10111001100110111011010110010111,
10111001000011100110100001100000,
00110110001110000001111011010000,
00000000000000000000000000000000,
10110100100111000111011010011111,
10110101100001101110000101100110,
10111000011001110100000001011011,
10111001101011111100011010111011,
10111011000101110010101001001100,
10111011100100010010001100101110,
10111011110010100110110001110101,
10111011111011011101110000110001,
10111011110001011011101001000010,
10111011001100000110111000010010,
00111010100111000110010000100000,
00111011101011110001001011000110,
00111100011000010010000000001100,
00111100100001011110001101000010,
00111100010111010001111010001010,
00111011011001001101110100111110,
00111011001001100010100101011010,
10111010111001011011101001101010,
10111100000100101010100000100110,
10111100001110110100111111001100,
10111100001101101110010111011001,
10111100000100100010001110000010,
10111011101100101010100011011000,
10111011000101001011001011000110,
10111010010110101100100101000111,
10111001011001001100100010111111,
00110110001001010011110011110110,
00110101100000010111110111000010,
10110101001010011111001110011100,
10110110000001111000111001100000,
10110111011111001110011010011010,
10111010000010011100010100000001,
10111011001101000110100000001000,
10111011101010110011010101001001,
10111100000010000001001010111111,
10111100000001111110010000111001,
10111100000010111101011010011110,
10111100000011100011010010101001,
10111011101110001000010100100101,
10111011001001000010111010000100,
00111100001001001110100001000101,
00111100100011111001000000011111,
00111100100011100110001010011001,
00111011111010110110001011000111,
00111011001100011100110100100011,
10111100000011010110011010100100,
10111100010011000001101110100110,
10111100010100111101110110111010,
10111100010000100111011101001000,
10111100001000001000101000100110,
10111011110111000001101000101000,
10111011010110111010011011000111,
10111010101000001001010010100111,
10111010010001011101001111011110,
10110110101111001101010111001001,
00000000000000000000000000000000,
10110101110101111100111111000001,
10110101000111000111010111011101,
10110111100000100110100101100110,
10111001111101000100100010000100,
10111011010101001111111100001101,
10111011111000111011000000001000,
10111100001001100011001010101111,
10111100001010110010100010111111,
10111100001010101000101101100110,
10111100001011011110100001101011,
10111100000110111010110001011011,
10111011100011010010100101000011,
00111100000001110111000001101010,
00111100100011001110010000111000,
00111100100110101101010010010110,
00111011110001111110111001010000,
10111011100100111111011001100111,
10111100100000010011100011001000,
10111100100010100011010011010100,
10111100011101101010000101011001,
10111100010101110100010011010100,
10111100001010010010011011100011,
10111011110111111101011000100110,
10111011001110000011001011110011,
10111010000010011001001011010010,
10111001010100101001000100000011,
10110101101100110110010010110010,
00000000000000000000000000000000,
10110110000110000110101010111010,
10110111000111101010011101010011,
10111000100010001001101100100101,
10111010100010111101011100110001,
10111011100110011011110100000110,
10111100000100001111101110110101,
10111100010001101110000111010100,
10111100010011100101111111001000,
10111100001111000010010011101101,
10111100000000110000000101010011,
10111011100101000111110110111111,
10111010111011010000010001011110,
00111100000100111000110110101001,
00111100101001011010111001001011,
00111100100010100111110010110110,
00111011000001001011011111100000,
10111100001110101010000111110111,
10111100100100001101010100111110,
10111100101000101100010111110000,
10111100100011011100001010010011,
10111100010111111110111100110010,
10111100001000110010101100000011,
10111011110010010111010110110101,
10111011001100110011011001100000,
10111010001110100101001100111100,
10111001000101010100111110011011,
10110110110110010010100100100000,
00000000000000000000000000000000,
10110101010111010011001001000010,
10111000000100111001000110100110,
10111001010111001010000010010100,
10111010111011001110001001111011,
10111011110001101110011110000010,
10111100001100011011000011110001,
10111100011101001111100001011100,
10111100011010111101001101011001,
10111100001001011001100011101101,
10111011100101111001101001111000,
10111011100010111110111011110111,
10111010111111110011101000011011,
00111100000111111100101000101100,
00111100101000100001101010101000,
00111100010010101110111111101000,
10111010101000000001010101101110,
10111100010110010001110000101111,
10111100100100101011001100110100,
10111100101010111000011001010111,
10111100100110110101100010101001,
10111100011100110010011110010110,
10111100001101111010100111111011,
10111011111001111011000110011101,
10111011010010001110011100101001,
10111010101111111111001011000000,
10111010001010101010100011010010,
10110110111101010010010111111111,
00000000000000000000000000000000,
00110101101101100001101110101110,
10111000011111111000111100111001,
10111001111110010110101001001110,
10111011001110101101110000100000,
10111100000000011000111111001011,
10111100010100110011011111100000,
10111100011111001100011010101000,
10111100010010111011001001111101,
10111011111001111010011001110000,
10111011011100100100111111111100,
10111011100000101010011110001110,
10111010100111010000110110101000,
00111011110101111111011010111101,
00111100011100101000001100111100,
00111100000100011110001010010001,
10111011110010110001000010011100,
10111100010101100111011001110011,
10111100100011110111000011000101,
10111100101100100101100100100111,
10111100101001111010111100110100,
10111100011111001101111001101001,
10111100001011100100010001011001,
10111011110111011000010101110000,
10111011001000100100101111110011,
10111010110111010101011001000000,
10111010000001010110001010100001,
10110111111010001011110111000100,
00110011110000100011110010100011,
10110101111101000010001000110010,
10111000110100110001001100101110,
10111010011000011111010110001110,
10111011100000110100100010110111,
10111100000111000011011010011101,
10111100011001000000001101100000,
10111100011000100100011111011000,
10111100000101001101100011011011,
10111011101011001101101100011110,
10111011011100101011011110101011,
10111011000110011010011111001101,
10111011010100011101011011010010,
00111000101101011001010001011101,
00111011111010001011110001110111,
00111011001000111110001100111111,
10111100001011001110010111101000,
10111100001011110001011001100011,
10111100011010001101111101110000,
10111100100110101110110101000011,
10111100100010100001110111010011,
10111100011000000001001001100000,
10111100001011011000010110110110,
10111011110111000001010101011111,
10111011001001010101111010111101,
10111010001101100110010010000110,
10111001000110010111111011010010,
10110110111010001111010001111001,
00110100111100101100101111001100,
10110110000010100011111110101110,
10111001001010000010011101100111,
10111010110001100000110011100110,
10111011101101100011001010001001,
10111100001110010100100100101011,
10111100010010000101111101001101,
10111100000111001011010111011010,
10111011111011010001111100001000,
10111011010001011110101000011011,
10111010011100111110001111111011,
10111011011000000010100010110000,
10111011100101111011010111000111,
10111010101111100011110100010101,
00111010101000011011110001011101,
10111010101101101101001100111000,
10111011100010110001000011100110,
10111011101100111000000000010001,
10111011111001101110011001010101,
10111100000101111110011001110000,
10111100000011101100110011100000,
10111100000101011000000010000110,
10111100000010110000101001101110,
10111011101010110101110101011111,
10111010110111111001100001011011,
10111001100111000000110100101000,
10111001010110110110111011110000,
00110110000111011101001010110100,
00000000000000000000000000000000,
10110111000100110000010110001001,
10111001110100010100110100111101,
10111011000000110011111010110010,
10111011101110001111000011011110,
10111100000100000100110111000001,
10111011111000011011110100000100,
10111011101100011110110110011000,
10111011100011100011111110110000,
10111010001000111111100100110001,
00111010110011110001011011110101,
00111000100011001000010110101011,
10111010100011010000000011110001,
10110111111111110000101110011100,
00111010111101011101101001010010,
10111010100100100010000111000000,
00111001101000010011010101110110,
00111011000000001000001011111010,
10111000110010001111110110010110,
10111011010001000010111111011100,
10111011100011011011111101010110,
10111011101101111100110001110011,
10111011110100101010000001110111,
10111011100010100111110011110000,
10111010101101000000111100111010,
10111001010110011101010111111011,
10111001000001010100110001001011,
00110101110011100110000001101101,
00110101100000010111110111000010,
10110110111100110111011001001010,
10111010001010100000100000101111,
10111010100111010100101101101000,
10111011000100110110001111011101,
10111010100101101100011100110111,
10111010011101110111000100001001,
10111010010011111101000011111010,
10110111110000101011000110001011,
10111010100011101000010100011010,
10111010101010010011001011101000,
10111011010110100111010100010100,
10111011011100010001000001111011,
10111001100100000101001000001000,
00111010101100100010001100111101,
10111001001000110011110101111110,
10111001111100100011011011110000,
00111010000110100100000110101011,
10111001001110010110000101100001,
10111011001110000011010101110101,
10111011001001111101001111100011,
10111011010101100001011000111010,
10111011101101100010100111000001,
10111011010111101101010111000101,
10111010000010000110010110100101,
00111001001000000011111101101011,
10111000110000001011010011010110,
10110100110100100110101010010000,
00110101011110101110001110101000,
10110100010011010000001010011011,
10111010000110111110100000110111,
10111010011010010000100100110001,
00111001000001110011100110101000,
00111011011010010111100001111111,
00111011010011101101010110000111,
10111001110011000100010001110110,
10111010001110000010010110111100,
10111011001001100001110101000101,
10111011110110010110000011110110,
10111100000001100010001001110101,
10111011111010110010100111000001,
10111011011101011101010111011100,
10111011001011111001000110110001,
10111011100000100100011000110000,
10111011001010100110001011011001,
10111001011101110001100111101000,
00111010010101010111110010010111,
10111010100101111001101101101110,
10111010110100101001111011111100,
10111011010010111001110100110010,
10111011100000100101010100000100,
10111011000111011001101011101110,
10111001110010111100001111101100,
00111000110010111111100010010100,
00110110000100000101011101001010,
10110101010000100011101011111011,
00000000000000000000000000000000,
00000000000000000000000000000000,
10111000000111111110000010101001,
10111010001111101100001010001010,
10111010011100111111111110110000,
00111010101101110100010010000100,
00111011001001010011011110000001,
00111010001110100100101011111001,
10111011001010001111001110010110,
10111011101001000000101011110000,
10111100000010110111001110000011,
10111100000111101010111001100111,
10111011111000101011001000101100,
10111011100101110011011110100001,
10111011101100101000100011000101,
10111011011100011110011000011100,
10111011000000011110001110100011,
00110110111010001111001100001100,
10111001101010011101011011101001,
10111001100101001000100001011011,
10111010111010000110011001001011,
10111011010010100010111011001011,
10111011001101000111011110001101,
10111010111110110010110011010100,
10111001100110110111010011000011,
10110111110010011110010111100101,
00110110111011011011110101011100,
00000000000000000000000000000000,
00000000000000000000000000000000,
00000000000000000000000000000000,
10110111000011101010001101010000,
10111010000011111011011100011110,
10111010100001100111101111111011,
10111010000111101011100011111110,
10111010011001001110111000111010,
10111010010111010100100101111111,
10111011001000000101100000101100,
10111011100000100001111000000110,
10111011110000111011001011001011,
10111011111011000010010100110101,
10111011111100111001000011100111,
10111011111001100111000111000110,
10111011101110111001101000110101,
10111011010001111010111110010111,
10111011010110010111001101110100,
10111010110010000111010011100010,
00111000001100011001101111010100,
10111000111111000110011100000110,
10111010100011110001001111110111,
10111010101000010110010101110101,
10111010100000000101011010101111,
10111001101110011110100110010000,
10110111101101101000000001100011,
10110110101000110011010000111000,
10110100111011010110001000001100,
00000000000000000000000000000000,
00000000000000000000000000000000,
00000000000000000000000000000000,
10110101000111000111011010011111,
10110110000000111000001010011010,
10110111101001000000110011101110,
10111001101111110100101100001000,
10111010010110010010101100100000,
10111010011110011010010101010101,
10111010011100010110000001110000,
10111010110011111010010001110000,
10111011000001011011101010000110,
10111011000001110011110101001110,
10111011000110011001101001010100,
10111011001000110101011011001100,
10111010101101000101010001011010,
10111010101010010010110010111110,
10111010111011001111010101010100,
10111010100010000011101001100100,
10111001110110010100010011110000,
10111001111100001100000110011000,
10111001011111110010010001100001,
10110111111011110011101100100010,
10110110111001010000101100100111,
10110101000001000010111101000000,
10110100010011010000010101011110,
10110101011010101011000111101111,
10110101100011000100011100001011,
00000000000000000000000000000000,
00000000000000000000000000000000,
00000000000000000000000000000000,
00000000000000000000000000000000,
00000000000000000000000000000000,
10110100001011001010011000110100,
10110101101010011111001110011100,
10110110001011110101100011001101,
10110110110000000011010100001000,
10110110110100110001011100110110,
10110111000001110110001101010110,
10111001011110111011100110010001,
10111001101011011001010100111111,
10111000001000100011000010011011,
10110111101100101011100000010010,
10110111001000011101100000010100,
10111001011001110101100010101000,
10111001100100000100011110011000,
10111000001011111011011101100100,
10110111100101100101111010110010,
10110111011100011010111011101110,
10110110111110110111110110001001,
10110110010011110100101010001000,
10110100111100110010001110101101,
00000000000000000000000000000000,
00000000000000000000000000000000,
00000000000000000000000000000000,
00000000000000000000000000000000,
00000000000000000000000000000000,
00000000000000000000000000000000,
00000000000000000000000000000000,
00000000000000000000000000000000,
00000000000000000000000000000000,
00000000000000000000000000000000,
00000000000000000000000000000000,
00000000000000000000000000000000,
00000000000000000000000000000000,
00000000000000000000000000000000,
00000000000000000000000000000000,
00000000000000000000000000000000,
00000000000000000000000000000000,
00000000000000000000000000000000,
00000000000000000000000000000000,
00000000000000000000000000000000,
00000000000000000000000000000000,
00000000000000000000000000000000,
00000000000000000000000000000000,
00000000000000000000000000000000,
00000000000000000000000000000000,
00000000000000000000000000000000,
00000000000000000000000000000000,
00000000000000000000000000000000,
00000000000000000000000000000000,
00000000000000000000000000000000,
00000000000000000000000000000000,
00000000000000000000000000000000,
00000000000000000000000000000000;