memory_initialization_radix=2;
memory_initialization_vector=
10111001010110000000001001000110,
00000000000000000000000000000000,
00000000000000000000000000000000,
00000000000000000000000000000000,
00000000000000000000000000000000,
00000000000000000000000000000000,
00000000000000000000000000000000,
00000000000000000000000000000000,
00000000000000000000000000000000,
00000000000000000000000000000000,
00000000000000000000000000000000,
00000000000000000000000000000000,
00000000000000000000000000000000,
10110011110101111101111101100010,
10110110000100011011011011001001,
10110110000100011011011011001001,
10110011110000100100100100001100,
00000000000000000000000000000000,
00000000000000000000000000000000,
00000000000000000000000000000000,
00000000000000000000000000000000,
00000000000000000000000000000000,
00000000000000000000000000000000,
00000000000000000000000000000000,
00000000000000000000000000000000,
00000000000000000000000000000000,
00000000000000000000000000000000,
00000000000000000000000000000000,
00000000000000000000000000000000,
00000000000000000000000000000000,
00000000000000000000000000000000,
00000000000000000000000000000000,
00000000000000000000000000000000,
00000000000000000000000000000000,
00000000000000000000000000000000,
00000000000000000000000000000000,
10110100001011001010101101111010,
10110110001111000010110010000010,
10110110110001111011001100101011,
10110111100001001101100000000011,
10110111110001000111010111110110,
10110111011101010101101010001101,
10110111010110101001101100000110,
10110111111000111100000100001100,
10111000001010001101111001000011,
10111000011010100110010111010000,
10110111101001100010001011111011,
10110101010000100110001111001101,
00000000000000000000000000000000,
00000000000000000000000000000000,
00000000000000000000000000000000,
00000000000000000000000000000000,
00000000000000000000000000000000,
00000000000000000000000000000000,
00000000000000000000000000000000,
00000000000000000000000000000000,
00000000000000000000000000000000,
00000000000000000000000000000000,
00000000000000000000000000000000,
00000000000000000000000000000000,
10110100100111000111011010011111,
10110011110101111100111111000001,
10110101101101101000000000101101,
10110111011010111100110001000000,
10111000001101101011101110111001,
10111000110010110011000101100101,
10111001101011000110111100110010,
10111010000100000001000101011010,
10111001010110010110100010011000,
00111000010100101111000110001111,
10111001001111001001111110001111,
10111001101001010000010000001000,
10111001111000001001010011100001,
00111001001001000011001001111000,
00111010000010000101100011110011,
00111001101010110011101010000100,
00111000100111010111111000100110,
10110110010110000111011000001111,
10110110100000000011001011010011,
10110100000000010111110110111000,
10110110110111010010101101000000,
10110110110100101011111010010110,
10110110000101101011011110101001,
00000000000000000000000000000000,
00000000000000000000000000000000,
00000000000000000000000000000000,
00000000000000000000000000000000,
10110101110101101110110110100000,
10110101101011100001010111111100,
10110110100010101000011001011111,
00111001111111100001000111100001,
00111001101000011111100111011010,
00111001100111000011001100100000,
00111001010111111010110110110010,
10111010101001001010110010001101,
10111010110011101011011110101001,
00111010000000010100000111111101,
00111010110011100100010000001110,
10111001000001001010001111111010,
00111011011011110111000110010011,
00111011100101001101100010111011,
00111011100110100000101100101110,
00111011110011100001101110111110,
00111011110111001011110000010100,
00111011101100010011100110000010,
00111011100000100101001101110111,
00111010110000100000010100010000,
10111001100010010011000100010001,
10111001000011110110111001001001,
10110110111100011000110110101010,
10110110010010011111001101100110,
00000000000000000000000000000000,
00000000000000000000000000000000,
00000000000000000000000000000000,
00110110011001110000000000010001,
10110101110111110111000001000100,
00111000110011001100110111001000,
00111001111100000100000110100110,
00111010110111100111000000001011,
00111011000010100011001101110101,
00111011001000000001000000101010,
00111010111011010010100000000111,
10111010000110001111101111111010,
10111010010000011111001110101011,
10111011001000110111010101110111,
10111011001100010010111110100010,
10111011100101001110111100100011,
10111011100010101111110110100011,
10111011001101111101001010101000,
00111010010001010010110001010001,
00111010101111110010101011111011,
00111011010011100100110010000110,
00111011000111001001110110111011,
00111001000000111000011100100111,
10111010010100000010101101000111,
10111010011011110110101111111010,
10111010111110010111000001110000,
10111010000001001100001110101001,
10110111000001001010000001100111,
00000000000000000000000000000000,
00000000000000000000000000000000,
00000000000000000000000000000000,
00000000000000000000000000000000,
10110110000010101011101110111011,
00111010001011111111111100010001,
00111011000101001010100101000001,
00111011101000011101000101100110,
00111011101010001111100101010110,
00111011101110011010000101010001,
00111011001110010011011010100100,
00111011000101010010011011111111,
10111001100111010010101110000010,
10111011001100011111101011100100,
10111011100010111011110000111011,
10111011110100110010110011111101,
10111100000101011010001000101011,
10111011100110000101011010110101,
10111010101011011111000111101101,
10111011011111011010100000111011,
10111011000000110001101110111101,
10111010101001010000011010001011,
10111011010011000110010010100100,
10111011011101100011111010001001,
10111011010111001101010101001100,
10111010111110011011111010001001,
10111010001000100111100110011110,
10110111000111001100100100001111,
10110110010111110010101000001000,
00000000000000000000000000000000,
00000000000000000000000000000000,
00110101100111100000011001001110,
00111001101000111010101100101000,
00111010101100110000011011010000,
00111011100011111111000010101000,
00111011111010001111110111001011,
00111011111110100110000111101100,
00111011110101001110100111101000,
00111100000001000001010010011101,
00111100001011101000010100000001,
00111011111100001000111101001110,
00111011101100010111011100110100,
00111011101001011011111110111001,
00111011100101001100011110011100,
00111011000001101110000110011011,
00111010010111001001011010000110,
00111011110000100110110000110110,
00111011100010001101100110100001,
00111011101101110111000000100101,
00111011010101110100010100111100,
00111010111010111110010001101101,
00111010011011110111011101100100,
00111001010011110101110011000101,
10111010001000101110111011100100,
10111000100111010010000111110000,
10110111010011111001000010111100,
10110110100111100000011001001011,
10110110001111001010011110010001,
00000000000000000000000000000000,
00111000011110010001101001000101,
00111001010011000010010000100001,
00111010101011100011011000010111,
00111011101011110001010101001101,
00111100000001110111100010000101,
00111011111100011010011111110100,
00111011110111100100000000110000,
00111011110111011001101011011010,
00111100001000111110011101100001,
00111100000010110010001100111000,
00111011110001111110011101011011,
00111011110010011100111101111111,
00111010111101110110001000111010,
00111011100100001001001001010010,
00111011100101110011100001111101,
00111010100100010111000000100110,
00111011110010010000111111001100,
00111011110010001110100011011111,
00111011101110010010100001111100,
00111011011111111000011000011100,
00111010001010111000001100011001,
00111010000101010001001010101100,
00110111111101010000110010011110,
10111000110011110011111100001101,
10110111111101001100111000111010,
10110110100001110111011001011110,
10110110110001101111110111100110,
10110101000011101111100110100011,
00110111101001100100111110101100,
00111000010010010000100100011101,
00111010111010001100011110001100,
00111011101110101001001001101001,
00111011110011000100000011010011,
00111011101100011101011111101011,
00111011100101100011001001001100,
00111011000110101110100100101001,
00111011011111001011101111101011,
00111011001000001000000010100110,
00111001011111110111100111000100,
10111011101111101110111101011000,
10111100001110011010010001111111,
10111100000000011100010100010011,
10111011101110110011001000110011,
10111011110100110110111110100000,
10111011000010000101100110010001,
00111010011010110011010111111011,
00111010111011011100111101000011,
00111011110000111010100000101011,
00111011101110000011001000101111,
00111011100000101100011101011101,
10111010111100010010011100011001,
10111010101001111111110111000110,
10110111110111011111010010110001,
00000000000000000000000000000000,
00000000000000000000000000000000,
00000000000000000000000000000000,
00110111101011110100011111101111,
00111001110010011110001011000110,
00111011000011011011110101110000,
00111011101100110000010001011011,
00111011010111001000000110010101,
00111010101110001000010111011100,
00111001100010000001010110001010,
10111010100000011101100101010011,
10111011100010010101101010110111,
10111011111111010010011111110001,
10111100011010011000001011011100,
10111100101011000010110110011010,
10111100110011010010100101011000,
10111100011001100100111111011001,
10111011100100100000001110100011,
10111011001111001101000111011110,
10111011101101010101010001000100,
10111011100111010110100010110001,
10111011011100101110100111011110,
00111011110010101101010011010101,
00111011101001011100001000011011,
10111010000111001101101010011001,
10111011100100110010011100000000,
10111011001110000110001111100100,
10110111111011101001010000110101,
10110110010010000101110101010000,
00000000000000000000000000000000,
00000000000000000000000000000000,
00110110111111101110110110010001,
00111000100011011100000001001010,
00111010111101011100001111101111,
00111011001101111000000111110010,
00111010110110011000001111111100,
10111011000101101000010111110011,
10111011011101010101001011100101,
10111011100111001111100011010101,
10111100000111101011111101001011,
10111100010011100100111001000011,
10111100100010000001001010001101,
10111100100101111100110111010100,
10111100001011111001000110100010,
10111011011111000111001111100101,
00111100000010111111010101011010,
00111100001110011000110011101110,
00111011101101000000000000101110,
00111011000011011111100011100011,
10111011010000110000100001001010,
10111010010100100101011100101101,
10111011111001111010000001010011,
10111100010001101011111011101111,
10111100000111000100111101100101,
10111011011100100000000101011000,
10111000101001010101011011111100,
10110111100110011010000000100000,
10110110000000000100111101111111,
00000000000000000000000000000000,
00110110100110101001100001001001,
00111000100010011011111101000111,
00111010101000001011010000011111,
00111010100100101011101000000001,
10111010101101111011100010111110,
10111011110001000011000000101111,
10111100000011101011011010111110,
10111100000100111110110111100011,
10111100000110001001001100111101,
10111100000000100011011101010010,
10111011001011111111010100101110,
00111011111000011110001111010000,
00111100100000001101101011011101,
00111100101011111111000100111001,
00111100111101100001000011010010,
00111101000001111010000100101000,
00111100111111100111101011100111,
00111100011100010001001010111011,
10111010100101111000011111000011,
10111100000011110110110101101101,
10111100101111100111010110110001,
10111100101110001101100100110111,
10111100011001101101000101010110,
10111011101001011001000100010000,
10111001001000100010011101000110,
10110111101011011100100101100001,
10110110100110011010001001101110,
00000000000000000000000000000000,
00110101101010110111000000110000,
00110110110101100111011010111100,
00111010001010100101111100010100,
10111001110100101011011100101000,
10111011011101010101100001001110,
10111100000111001100001100011011,
10111100010110100101111111100011,
10111100010000101111100111010100,
10111011111110010100111011100110,
00111011001000010100101001111101,
00111100100111010011110000110111,
00111101000011100010011011111111,
00111101000011101010110010000110,
00111101000001110111010111110110,
00111101000111011011100001100110,
00111101010010001011110111101100,
00111101001101111010000011010110,
00111100110000001011110101100000,
00111010111100101011001011101110,
10111100100000001000000011000111,
10111100111011001101111111101111,
10111100110100011000001010001100,
10111100100001100101110001111000,
10111011101111100101001101110000,
10111001011010010001110111111000,
10110111111111011110010100010101,
10110110110111100111101110010011,
10110101101101100010101111111011,
10110101001010100000001001011100,
10110111000101010011001011101001,
00111010000011011001100001000010,
10111010101100001100010100001011,
10111011111100011001100101000111,
10111100100000000101101010011010,
10111100101011011100001101011011,
10111100101011000001100010111001,
10111100011010100010111101110100,
00111011011010100000011100011101,
00111100110110010111111011010011,
00111101001001110011110110011110,
00111101000000001001001010111000,
00111100100110110100001010010011,
00111100110100100011010101111001,
00111101010001010001000010000001,
00111101010011001100101001100000,
00111100110110100110111111111000,
00111010110110000010010011001101,
10111100010011001100110111011001,
10111100101110101111011000111010,
10111100110010010100111001100011,
10111100100000100100011110011101,
10111011101110001110111101010101,
10111010000001001010001001111110,
10111000101000010101111101001011,
10111000011010011010001001110101,
00000000000000000000000000000000,
00110111101001101110100110111001,
00110111010100000101100111010101,
00111001100100100111000011011110,
10111010101111010110000111000101,
10111100001011100101101101001111,
10111100101110000001101111101100,
10111100111111010001100011100100,
10111100111011111111100011101111,
10111100101000010011101111110000,
10111011000010110001011101000001,
00111100100111110110001001111111,
00111100111110100100011110011101,
00111100010001110011011001100101,
10111011011110110100001101110000,
00111011010001100010111011100110,
00111101000010101011011101010000,
00111101001010101000110001001010,
00111100110000100010011000001100,
00111011111011011001011011101100,
10111011001110001100110110000011,
10111100000011101000001010111110,
10111100100001000001100000101010,
10111100010000101001000110010000,
10111011100110111010011111011000,
10111010011001111011001000110111,
10111001101011010101100100001110,
10111000001000110111101111001100,
00000000000000000000000000000000,
00110111111110101011100110111001,
00111001001111101111100101110000,
00111001100100010100011010101100,
10111010100111011000011010101011,
10111100001110110111000010011111,
10111100110011010100100101010000,
10111101000010110111100001110101,
10111101000011101100101111001001,
10111100111001110111101110001001,
10111100011101101111100011100011,
00111011100100101110100101010100,
00111100000111010110010110010011,
10111100000010111001001100110101,
10111100110010000001101010110000,
10111100011101100100110011000101,
00111100001111100101111101110101,
00111100110001011101000010101100,
00111100101001001000111000010110,
00111100011111010110001011100110,
00111100000010100011010101010101,
10111000100011010001000101010011,
10111011100100010111110110111001,
10111011110010000001011101111111,
10111011010010110000000100011100,
10111010101011111111000011000011,
10111001101100011110111100000011,
10110111101111110101100011000110,
00000000000000000000000000000000,
00111000000111001101010101100010,
00111010001101101110110010100101,
00111011001100100000000000001011,
00111011010000111101110000010010,
10111100001000110100011110100111,
10111100110001011010101100100101,
10111100111110001001010010010001,
10111101000100000000101001010110,
10111101000011100110000011101001,
10111101000001110001110101001000,
10111100100110010010100011011000,
10111100100011001111000001011001,
10111100111000000100100110100011,
10111101001000010001010110001111,
10111100110010100011110101001111,
10111011110101010101111110011011,
00111100001000111011101101100010,
00111100100010001001011100110010,
00111100100000111111001100101110,
00111100001010011010001100101101,
00111010101010110110011010000100,
10111010010100100111010010011000,
10111010111111100011101100000111,
10111011000011110100011110000100,
10111011000010000101110101011110,
10111001110100001010010010011001,
10111000010010011001100011101111,
00000000000000000000000000000000,
00110111101011011011001010100100,
00111010001011100000111010000000,
00111011101110010000011010010111,
00111011111011101010111010000101,
10111011101000111101111010010111,
10111100100010011101111010110100,
10111100110010100110010101000111,
10111101000001010000010100110110,
10111101001001110010101101100011,
10111101001101011000010100001001,
10111101000100010001100101000000,
10111101000001110100001001011101,
10111101000111011111100100001101,
10111101001101001010111110001100,
10111100110111011111100000010000,
10111011101011001011100110101011,
00111100001000111101001000001101,
00111100010101111010001011010101,
00111100011010001010001001010000,
00111011111000000000111011100000,
00111011010000010001111100111100,
10111010000100101010011100100111,
10111010110101011011000101011101,
10111011101100110110001111110001,
10111011011010010101010101110110,
10111001111001111001111000000000,
10111001010101100000010101101110,
10110011110000101011010010010111,
00110111101111011011110100101110,
00111010100001001001011110011011,
00111100000101010111110111001011,
00111100010100111000100010110101,
00111011101010001010011010011101,
10111011110000111101110100100000,
10111100100111101011111111101111,
10111100110111110011010011001000,
10111101000101110111110010100100,
10111101001100010000110010100000,
10111101000100100111010011101100,
10111101000100110001101000110000,
10111101001000011010111011111100,
10111101000111000110100011011011,
10111100101001100111001111000111,
10111010000101001101001010101010,
00111011110010000110001000010110,
00111100010010100011001111101111,
00111100010110000001011111111001,
00111011110110001010001100000101,
00111010111100101110110101000011,
10111011001110111110110010100101,
10111100000010000101000000110110,
10111100000001111101000000100110,
10111011011000010010100000101011,
10111001101110001010000000100010,
10110111111100011101000100100010,
10110100111100110110000110111100,
00111000000000100011100111011011,
00111010100111101000010011100100,
00111100001110000111110101101011,
00111100100110000011000110001110,
00111100100110110101110011010100,
00111011101101010011110110100010,
10111100000011010110101111000100,
10111100100011010011100010000111,
10111100111000111110100011000011,
10111101000011101100101111100100,
10111101000010100011011110110110,
10111100111111001000010001011101,
10111100111110111100101100010011,
10111100110010001001110100101110,
10111100010110111101001000100010,
10111011100101000101111101000000,
00111011100010010111111110111111,
00111100010000110011100000000000,
00111100010101000001110010111010,
00111011101101010110010010100010,
10111010110010110100011010111110,
10111100000101010100000000010010,
10111100010110101110001000001110,
10111100000110100111110000111100,
10111011010100001010111110101000,
10111001111001011011101101110000,
10110111101000101100111100010001,
00000000000000000000000000000000,
00111000011101110100011101001101,
00111010101101111111010010000100,
00111100001001000011011011011011,
00111100100100100101110011101111,
00111100101011110101100110111000,
00111100010010100010000110101001,
10111010001111001111010111000110,
10111011110101100001110010111101,
10111100010110101000111010101111,
10111100101111010101101101111101,
10111100110101110100001100001101,
10111100110000111010101001100010,
10111100100101100100011111001001,
10111100010010010100010010011100,
10111100000110011110000101101010,
10111011000001110011001101101000,
00111011011110000011000110011000,
00111011111110001101000001011000,
00111100000001010111000011000110,
00111011001010011101000001111000,
10111100000101100100011101011001,
10111100011110111110000101100101,
10111100011111110110000001110110,
10111100000110011001001101001100,
10111011001001110011101100110001,
10111010000110011100100011011000,
10110101110011101111010000101000,
10110101100010010101001110110101,
00111000001111100101010000001101,
00111010110000111100100011111000,
00111011111001101101100101000001,
00111100011101100000100011110001,
00111100100000011000000101001110,
00111100010000010100010000010000,
00111010111011100101110101011110,
10111011000001001010011110010100,
10111100000000010101000001111010,
10111100011000100011101010110001,
10111100100101110110101111000101,
10111100001011000111101010010100,
10111011111001111001010101011000,
10111011110111110100001101110010,
10111011001101110100100110111101,
00111011001010011101100110101100,
00111011011110000101110001100110,
00111011100110101111101101110100,
00111010111011000101101100110101,
10111011100111001010100011001111,
10111100010100110101000111110011,
10111100100001010100010001000110,
10111100010110101100100110110010,
10111011111010101110001000100110,
10111011000010111100000101110001,
10111010000011000011000011100011,
10110110000000111010111111001001,
10110101100001010000100100010111,
00110110100010100011010010101010,
00111010011110001010000001111000,
00111011100100100011001101001110,
00111100001110001011100011100000,
00111100000011001010001101111010,
00111100000011000101101011001000,
00111011101101011011000101101110,
10111000101101000110001110111000,
10111011000011110110101011010101,
10111011100010011110000110111111,
10111011100011111010000001110100,
10111011011001110000000011100111,
10111011011101001000010110010000,
10111011001110100110011100010011,
00111010011001110101101000101101,
00111011101110010001000011010100,
00111011011011111110001100101010,
00111010010110111110110000101100,
10111011000001000000011111000100,
10111100001010001000101001101010,
10111100011000011001110001001000,
10111100001011011100011011110011,
10111011111001000001011001001001,
10111011010110001110000111110101,
10111010100111010101110101100010,
10111000101010000101011010001100,
10110110011100110001110100100101,
00000000000000000000000000000000,
00000000000000000000000000000000,
00111001101110000001101110000101,
00111011010100101111000000101010,
00111100000100111000101000110110,
00111100000111000111111111101011,
00111100010000100111011011100000,
00111100010011100101000101111011,
00111100001010010110001001010111,
00111011110001110010010111101101,
00111011111010111100001011101001,
00111011010001100101011101110010,
10111011011001010110000101101011,
10111011010101010000011110110111,
10111010111010101100111010100000,
10111011100000011111000101101001,
00111001111001010111010110000011,
00111011000110010010100100110011,
00111010111011101010001100010111,
10111011011001100000110111010110,
10111011110001111100011101001110,
10111011111010010000111101001011,
10111011110101100010010110011101,
10111011010000011010010111100001,
10111010100100010111010001101100,
10111001101000111010111110010111,
10110110111000000001011111011000,
00000000000000000000000000000000,
00000000000000000000000000000000,
00000000000000000000000000000000,
00111000101110000111101100101100,
00111011000000100000001010011011,
00111011100111100100100110110110,
00111011101110111111111100110011,
00111100001110100011110101110001,
00111100100000010001011100010100,
00111100011111011110100010111100,
00111100100001111001110110100110,
00111100101000011000110011101011,
00111100101000111011001001110010,
00111100011000110110110111011100,
00111100010100101111000001001111,
00111011111001111100100111010111,
00111011110000001000100010001001,
00111100000110001101001111010010,
00111011110111101101000110010100,
00111010100101111100100001100000,
10111001111010010100011000101010,
10111010101100111110110011010000,
10111011000110001001110001110110,
10111011000000101101101110110010,
10111010011110001100100011011111,
10111010010001001001011101001101,
10111001110001111110100111001001,
10110110100000011111000100101111,
00000000000000000000000000000000,
00000000000000000000000000000000,
00000000000000000000000000000000,
00110110110110001110101011100001,
00110111101011101011000110000010,
00111010000001011110011101010001,
00111010110101001000110001111010,
00111011011011101001010010000011,
00111011110000000100001000001100,
00111100000101000100111111011111,
00111100001111010001110011001111,
00111100010111000110011110010100,
00111100011000111110110101110110,
00111100010100111100110101111000,
00111100001110110110010011110100,
00111100000001010101010101110101,
00111011110011000111010100001110,
00111011101111101101101011000100,
00111011100110111010001011110010,
00111011010110100111101101001100,
00111011001011100100010111010110,
00111010001110011101110101110101,
00111000101000000000101100000001,
10110111101101101100101101000100,
10110110001001110010000101010111,
10110101000110100110100010011000,
10110110001100001100000111010110,
10110110010100110100101111000010,
00000000000000000000000000000000,
00000000000000000000000000000000,
00000000000000000000000000000000,
00000000000000000000000000000000,
00000000000000000000000000000000,
00110110000001010101110001010001,
00111001000011010100001101111000,
00111001100011011100100011010101,
00111001101010001010100000101001,
00111010000000000011010001111011,
00111010010101101111000001010001,
00111010101111111111101111000001,
00111010110110111010111011100101,
00111010110001011101011010101011,
00111010110001101000100001011010,
00111010101010011011111011100000,
00111010010111110001010110001010,
00111010100110100001110101001001,
00111010101000110111000111110100,
00111010000110010110101010111100,
00111001000011000000010100011100,
00111000110001011000110110001001,
00111000001010100010110011011111,
00110110101001110110110110010110,
00000000000000000000000000000000,
00000000000000000000000000000000,
00000000000000000000000000000000,
00000000000000000000000000000000,
00000000000000000000000000000000,
00000000000000000000000000000000,
00000000000000000000000000000000,
00000000000000000000000000000000,
00000000000000000000000000000000,
00000000000000000000000000000000,
00000000000000000000000000000000,
00000000000000000000000000000000,
00000000000000000000000000000000,
00000000000000000000000000000000,
00000000000000000000000000000000,
00000000000000000000000000000000,
00000000000000000000000000000000,
00000000000000000000000000000000,
00000000000000000000000000000000,
00000000000000000000000000000000,
00000000000000000000000000000000,
00000000000000000000000000000000,
00000000000000000000000000000000,
00000000000000000000000000000000,
00000000000000000000000000000000,
00000000000000000000000000000000,
00000000000000000000000000000000,
00000000000000000000000000000000,
00000000000000000000000000000000,
00000000000000000000000000000000,
00000000000000000000000000000000,
00000000000000000000000000000000,
00000000000000000000000000000000;