memory_initialization_radix=2;
memory_initialization_vector=
10111001000101101110001010101011,
00000000000000000000000000000000,
00000000000000000000000000000000,
00000000000000000000000000000000,
00000000000000000000000000000000,
00000000000000000000000000000000,
00000000000000000000000000000000,
00000000000000000000000000000000,
00000000000000000000000000000000,
00000000000000000000000000000000,
00000000000000000000000000000000,
00000000000000000000000000000000,
00000000000000000000000000000000,
10110100101000011001000111110010,
10110110110110100001111010100001,
10110110110110100001111010100001,
10110100100100010110100111000000,
00000000000000000000000000000000,
00000000000000000000000000000000,
00000000000000000000000000000000,
00000000000000000000000000000000,
00000000000000000000000000000000,
00000000000000000000000000000000,
00000000000000000000000000000000,
00000000000000000000000000000000,
00000000000000000000000000000000,
00000000000000000000000000000000,
00000000000000000000000000000000,
00000000000000000000000000000000,
00000000000000000000000000000000,
00000000000000000000000000000000,
00000000000000000000000000000000,
00000000000000000000000000000000,
00000000000000000000000000000000,
00000000000000000000000000000000,
00000000000000000000000000000000,
10110100001110000001001010101001,
10110110010000110111011100011010,
10110110011101110110010100011000,
10110110110100001010110001101100,
10110101010101001000010011001010,
00110111000100010010010110101011,
10110110011011000010001000111101,
10110111101101111001001101100000,
00111001001001000111100101100001,
00111001111101001010010001111111,
00111001011011000011000100000000,
10110101010000100011101110110101,
00000000000000000000000000000000,
00000000000000000000000000000000,
00000000000000000000000000000000,
00000000000000000000000000000000,
00000000000000000000000000000000,
00000000000000000000000000000000,
00000000000000000000000000000000,
00000000000000000000000000000000,
00000000000000000000000000000000,
00000000000000000000000000000000,
00000000000000000000000000000000,
00000000000000000000000000000000,
00110101110000111001100001001001,
00110101000001101110010010011100,
10110100111100101100100110111010,
10110110101100110000111101101001,
10110111101101111011111110010110,
10111001011011001101110000010101,
10111010011110011101011100100011,
10111010011000110100111100000001,
10111010011001010100110110110100,
10111010100001000010000111001100,
10111010100011111010101100100001,
10111010100000010111111101000100,
10111010011101110111101110101010,
10111010010001011100100011010011,
10111010001001011101010110000110,
10111001100001100011110100100001,
10111000101111010101010101101111,
10111000000011001011011001101000,
10110111000111100101010010111110,
10110101001001000000110000000111,
10110110111010111011100011101100,
10110111001100000000100001110100,
10110110101001101110110110001001,
00000000000000000000000000000000,
00000000000000000000000000000000,
00000000000000000000000000000000,
00000000000000000000000000000000,
10110101010001111101110000000111,
00110110011000011111000110111110,
00110110000110011111001110101000,
10111010000011011110110100000100,
10111010001011110010110110101101,
10111010011110110101010011001001,
10111010110000001110000111111110,
10111011011010111101101011011111,
10111011101100010100001010100000,
10111011110011110011110000100100,
10111011111011101000111110001111,
10111011111010000101001000101101,
10111100000010000000000101000100,
10111100000111000000101111110000,
10111100001001100100100000010101,
10111100000001111110001110110001,
10111011101100111011110110111100,
10111011011010101011001000000000,
10111010111110101011000000011000,
00110111101000000111001101000100,
00111001110000110011010100000011,
00111000011010110110101001100010,
00110110100010101001101101000001,
10110101101010110100111000100110,
00000000000000000000000000000000,
00000000000000000000000000000000,
00000000000000000000000000000000,
10110100110011010000010101011110,
10110110100111000110100110111111,
10110110100111111111000011001111,
10111001100001110110011010010100,
10111010101010000111100010010101,
10111011000101001001101001100101,
10111011010110101111110101011010,
10111011111000101011011111111001,
10111100010001000001011001000010,
10111100011110010011010110011111,
10111100100001100001100101100101,
10111100100101001100000010000000,
10111100100011110011001010111111,
10111100100000011100111100010010,
10111100010110101010101110111011,
10111100010011010011010001001000,
10111100000010001111101100000100,
10111011100100011101110010001101,
10111011010010100010111100011110,
10111010011100000100110010000101,
00111010100010100101100100101110,
00111011000100000010111000000110,
00111010100101011111110010001101,
00111001100001000111011111110110,
00110110000001100011100101111001,
00000000000000000000000000000000,
00000000000000000000000000000000,
00000000000000000000000000000000,
00000000000000000000000000000000,
10110111000010101100010101001000,
10111000101110000010001011011010,
10111010100000110110110111111000,
10111011010110010111101111110110,
10111011101100101111001000111001,
10111100001001001010111111100011,
10111100011111010001000110100011,
10111100101001101101000001100010,
10111100101101111111000101011110,
10111100101101011100011100100000,
10111100101100001011110001101000,
10111100100000000001101000010101,
10111100010010001100100110000010,
10111100001000100110001110100110,
10111100001110010110001100010101,
10111011101011001000011100110001,
10111010111101111101011000010011,
10111011010100010100000001111000,
10111011100110000010010010001111,
10111010100011110100011111111001,
00111010111101101000101111100011,
00111010001100011110001000101101,
00111010001100111100011000101100,
10110101111100010111000000000001,
10110101000011101111100110100011,
00000000000000000000000000000000,
00000000000000000000000000000000,
10110100010011011010011110001110,
10110111100110001100010011110100,
10111001111000111101011110000010,
10111010111000111001000110101111,
10111011100010000011110100010011,
10111100000011111000001110101111,
10111100011001110001010111110110,
10111100100110001011101110101000,
10111100110000001100011000011001,
10111100101011100000100011010110,
10111100100110101110111001001011,
10111100100000001010011100011111,
10111100000011000000111000001111,
10111011110110101100100110110010,
10111011110000001101111011000111,
10111010111100100101001111110100,
00111010011011110110001100011001,
00111011001001000110101110011100,
00111010011000100100111110111011,
10111001111101110110101110111100,
00111001011011110100101110101110,
00111011010010010001100101111000,
00111011000101100110000100110101,
00111010001101010101101011000111,
00110111100110010101101111111110,
00110110011001001010010101100010,
00110110011101100010111000000011,
00000000000000000000000000000000,
10110111010100000001001101011100,
10111001000011000010110011000010,
10111010001000001100011001001010,
10111011001110001100100101011001,
10111011101100100110001100010000,
10111100001000111000101011000011,
10111100011100010100001000100111,
10111100100010101100000101010100,
10111100011100100010110111100110,
10111100001101100100100010011111,
10111100000110001110011111101101,
10111011101000101011010100010010,
10111001011000011011000111001100,
00111010100101000101101001110110,
00111010110001110100100011111011,
00111011110010111101100001111101,
00111100001001000011101011001001,
00111100000010100010111100101100,
00111011110111110110010110010011,
00111011100010011000010101110010,
00111001111111101001111011111111,
00111011100001101011011000011111,
00111011101010110101110010101111,
00111011000010101101010110010110,
00111001100000101110100001000101,
10110100101000011101011110110101,
00110111000000011101010110100011,
00111000000010111001010101101111,
10110111000000011010111010100100,
10111000100100000100000111010000,
10111010001010111100101011110011,
10111011011100000010111011010000,
10111011110110010110100111100100,
10111100000110100010110110000110,
10111100001110000000010100100101,
10111100000101100111011100010011,
10111011100101111011100100011100,
10111011100110100010111010000100,
10111011001011001011011010100100,
00111011101101010001010000010001,
00111011111101000110111001101100,
00111011010000011010111101110110,
00111010000011001100111001100100,
00111100000010001011100111101001,
00111100010001001001010011100010,
00111100010011101101000010101110,
00111100001100000011110101000001,
00111100000110000100011001010011,
00111011100111010000101111111100,
00111011101011100010101011110110,
00111011101110001111101101000110,
00111011001110111010011001011111,
00111000000010111101101110100110,
00000000000000000000000000000000,
00000000000000000000000000000000,
00000000000000000000000000000000,
10110110111100001100011101101100,
10110111110011010001100001011101,
10111010010011001011011001000011,
10111011011101000110110100001110,
10111011101101001000011101011001,
10111011110101000001011010111001,
10111011100011000111110001111011,
00111010100110010100010010010111,
00111011101110101101111011110110,
00111011101110100010010010010000,
00111100001010110111001101100101,
00111100011110100001100101010000,
00111100001010100010111001010100,
00111010010100111100101000111011,
10111011100110111000111001101011,
00111011000000010110011000011011,
00111100001011110000100010001010,
00111100011000011011100000111111,
00111100011101010110001101010011,
00111100010000100110111101101011,
00111011111101010000010111000111,
00111011110000000010001010111111,
00111011111010010101000100011000,
00111011100001010011100011001011,
00111000000101111101010011100101,
10110110001110110111100011011110,
00000000000000000000000000000000,
00000000000000000000000000000000,
10110110100101110001001100111110,
10110111011000100001111100000010,
10111010010110011111101000001100,
10111010111111111111111000100000,
10111011001001000000111110101011,
10111000111011000111011010111100,
00111011100110010101000011010110,
00111100001000010111101111011101,
00111100011101000101110001111011,
00111100011110111101101111000010,
00111100100101011101010001111001,
00111100100010100001010000111001,
00111100000010011000001011100001,
10111011100100101001101100001101,
10111100010010110000011100110101,
10111100000001110100001010100000,
00111011100010100111000001001101,
00111100010100010010111001100111,
00111100011100001011000001000000,
00111100011001000011000101110001,
00111100010111001101111000011111,
00111100010101111100001111000010,
00111100001001010001001011110100,
00111011100010110111000010100010,
10111000110001011010011010101111,
10110111001110100100111000110001,
10110100110011010000010101011110,
00000000000000000000000000000000,
00110110111010110000110010110101,
10110111011000010001101111001111,
10111010001010001110010011111001,
10111011000000011010110110000100,
10111010010001001110110110010000,
00111011111110011101111010001011,
00111100011001110001010110000001,
00111100100010011011110001111110,
00111100100101111010000000011001,
00111100100100001101000100110110,
00111100100111100111000100000101,
00111100011010000111001100000101,
00111011000011111111111000101000,
10111100101000010100110110000010,
10111100111111000011100000111011,
10111100110001010101010100001101,
10111011101111000110011001101111,
00111011111000101111011011010010,
00111100010010001110100110000001,
00111100010110100110110101011011,
00111100100101000110110110101110,
00111100101000001100000111010111,
00111100011000011011000100010110,
00111011101010000010111111111110,
10111001111101011111000100011101,
00110101110111001011011110011011,
10110101011101010111110001010010,
00000000000000000000000000000000,
00110100110111010011101000110011,
00110101100011101111101110101001,
10111001110101100101000110001100,
00111001011011010111000010100000,
00111011110110010111111100110100,
00111100011101111001010110101100,
00111100100111100101001010011100,
00111100101001100111111001001101,
00111100101001110111010000101010,
00111100100100111001000110101011,
00111100100101011000000000110101,
00111100001101000001001101101111,
10111100001101101110010010001001,
10111101000100100001111011110011,
10111101001011000110100101011001,
10111101000001011011001001010101,
10111100001101111000000001110010,
00111010011111101101110001011010,
00111011010110101111011101001100,
00111011110101010010111101001011,
00111100100101111110100101110001,
00111100101110111101000000011011,
00111100100011101010110011110001,
00111011101110110010101110101110,
10111001110111011010111000101011,
10110111110000011010110101101110,
10110110100110001110101011100100,
10110100101011001010011000110100,
00110110010101000111010011011100,
00110110111100100111100010010101,
10111001111010101101011010101010,
00111011000010000011111010011101,
00111100001100100110000010111100,
00111100100111010001111111100111,
00111100110001110000111011101100,
00111100110001001110010010111111,
00111100101101101010110101101001,
00111100101101001010000100010100,
00111100100110010000010101000001,
00111011100011111001110111100110,
10111100110000001100101101110000,
10111101001011100010011100101011,
10111101001110001010110100000010,
10111101000001000000101110100001,
10111100010110011011100000101110,
10111010110111110100010001011101,
10111011010110001001011101000011,
00110111000000100001011111010000,
00111100100000011010010100010000,
00111100110001000100001111000110,
00111100100100000000110101111011,
00111011101001011111111010010110,
10111001111111110000100001111100,
10111000100111110010010001010111,
10110111110100011101100111010001,
00000000000000000000000000000000,
10110110101000011101111010010100,
10110110001101110010100110111000,
10111010000110100101000101011000,
00111011000100111010111111010011,
00111100010001010011111110011101,
00111100100110100010011001001000,
00111100110001000011000001010000,
00111100110011101001111101011000,
00111100110001011111101110111010,
00111100110001011000101010011001,
00111100100101001001010111100000,
00111010100100100001101110010100,
10111100111101000010111100001011,
10111101010001010101110001101111,
10111101001111010111011010001100,
10111100111101100011000100101001,
10111100000101010011011111111100,
10111011101011101011111110100100,
10111011111100100101010110111011,
10111011011010011001000011111100,
00111100001111010101110010100000,
00111100100111011101010111011000,
00111100011011100010110110000100,
00111011100110010001011000100010,
10111010011110001100111101100111,
10111001100111110010001010110101,
10110110010011101111000111100110,
00000000000000000000000000000000,
10110110111001001010001111111111,
10111000000110110000110010011100,
10111010100000110111010010011010,
00111011000001100001000000111100,
00111100000111101111100101001011,
00111100100000100001100010010011,
00111100101100001100101010010111,
00111100110001111111110110100000,
00111100110011001101110001111001,
00111100101101101010001011111001,
00111100001101110111110101100010,
10111100001101110101110111100111,
10111101001010110110101000110110,
10111101010110011111110100011111,
10111101001101001111110101110001,
10111100110100000100010100001110,
10111100001111100010110100000001,
10111100000110001111011111111000,
10111100001101100111101100010000,
10111011100100101111100100111010,
00111100000001101000011010110100,
00111100001101010011011100000001,
00111100000011000110000001001001,
10111001100001010101011111101100,
10111011001011000001101100001011,
10111010101100001110111011100100,
10111000111101001100110101001101,
00000000000000000000000000000000,
10110110110101100111100111011111,
10111001000000011111001100100101,
10111010110010001111111100111001,
10111001100011110011101001001001,
00111011111001111011100110111011,
00111100010101000000111011101011,
00111100101010001001110100100100,
00111100101111101101010101111001,
00111100101010100100001010011001,
00111100100000110110110110101010,
00111010111110111011000000001011,
10111100110011001010011011001101,
10111101010001010101001110001110,
10111101010011101011010111100111,
10111101000101011100110001001011,
10111100101011000011110000001001,
10111100001110100010001010100001,
10111100001011010010101000111110,
10111100000111101101111110111011,
10111011100100000110110100010111,
00111011011011010111100100000010,
00111011100011011101010000111110,
00111010101000100000011011111001,
10111011100011101010000100100110,
10111011100010110100101001111110,
10111011000010001101101000100111,
10111001100100101011010111100001,
00000000000000000000000000000000,
10110111000100011101100110000011,
10111001010010100100100101111010,
10111011001110011111110001001010,
10111011100011101001011111101100,
00111010110101111100111101001110,
00111011101100101011101000010011,
00111100010010101110000101011110,
00111100100100110100111111011110,
00111100100110111010000111011001,
00111100011100101111111101101010,
10111011001111000110000100001111,
10111100101111000000110011000001,
10111101001000010000011011111100,
10111101000101101101100001111110,
10111100110000000000100010100110,
10111100001101011010000110101011,
10111011101110111011111101000000,
10111011111100011100011110100010,
10111100001010010100011101001100,
10111011110000011011010110110011,
10111011000010110110011101110001,
10111010101010001110100110000101,
10111011011001001110100010110101,
10111011101000000001110110110010,
10111011100000000101010011110011,
10111010101000011011101001000001,
10111000001010110111011000000001,
10110011000000010111110010100111,
10110111000000000101000010010111,
10111001100111001111011011111100,
10111011101000011011110001111101,
10111100000111101000000111010101,
10111100000000111101110100011000,
10111011010101111010000111010100,
00111011101111100101001000001101,
00111100011100000111010111111010,
00111100100100000111100111100101,
00111100010100001001010111011010,
10111011001111001110000101010011,
10111100100111101101011001101101,
10111100111011100111000010010001,
10111100110100100111110011011001,
10111100010100100110100100100100,
10111011101110101000111011011010,
10111011101101100011000010000011,
10111100000100000010101111100001,
10111100000111010001100111000111,
10111100000001011110101101111000,
10111011111000101011101010111010,
10111011111101000011000110101111,
10111011111110011101101100011101,
10111011110010001010011101011000,
10111011010011101110111011111101,
10111010000111010111010011110101,
10111001101000101111010100000110,
10110100001000011101101111010001,
00111000101010100100101011101100,
10111001110100010101100110101010,
10111011110000110101001101010010,
10111100010110000101111101000110,
10111100010011001101110101011010,
10111100000011100101011101000111,
10111001101110100011110011111101,
00111100000100101001010001001100,
00111100001111100101010100011111,
00111100001011110001111101010111,
00111010100000001111101000011001,
10111100001010001111001101101000,
10111100100000010100111101001011,
10111100010100110011010110000100,
10111011100110011001100001001001,
10111011001001000011001010010011,
10111011110011100110010010110010,
10111100001001000001111101101011,
10111100010100111110111101001111,
10111100010100111010000011101001,
10111100010101111100011111010011,
10111100001011100110000001001111,
10111100000101011011001111100000,
10111011101010010011111000111110,
10111010111110000110011110101110,
10111001010000111000010001001110,
10110111010001000100010101101110,
00000000000000000000000000000000,
00111001011000000011011110011100,
10111010000101011000011101100000,
10111011110110100000101010110101,
10111100010101011111011001000000,
10111100011010111010111110101101,
10111100010010010111100000000110,
10111011111010111110110101101111,
10111010111011100001010101111100,
00111011011000000010000110011110,
00111100000101110000100011111001,
00111011111010110101110011110010,
00111010100100011110111000110000,
10111011000111110000110000001010,
10111011000011100110111111001001,
00111010001100010000111110111111,
10111011000011001110110101110111,
10111011101000011000100111010000,
10111100001001100011000100101010,
10111100011011100111111010000011,
10111100100000011000010000100000,
10111100011000111111000111110110,
10111100001010111001000110100010,
10111011111101011000010100000101,
10111011100001100011111111000101,
10111010101010111100010010001110,
10111000111001000000010101110100,
10110101000010011001010001110010,
10110100101011001010011000110100,
10110111101001101101001001111001,
10111010010100010111100011111100,
10111011101010011000000101111111,
10111100010000101110011000110001,
10111100011011101011000111101100,
10111100011110101110001111001001,
10111100001000101100001111100100,
10111011101100101011011110110101,
00111000001011110011001000100110,
00111011111011001100011010110011,
00111100001110100001000011111000,
00111100000011111001100000011001,
00111011110110000011101000001111,
00111011101010001010100000111010,
00111011101000001110100010011000,
10111001111110101100100000100011,
10111100000010000000100100001010,
10111100001011100001111100101001,
10111100011000001000110111101011,
10111100010110100001100100101110,
10111100001011010011111001000001,
10111011111011100111000110101001,
10111011100101110100011101110011,
10111011001010001111010100010010,
10111010011000001111011110101010,
00111000100101010000001011010100,
00110110000000111000010101001011,
10110100101001110100000100000011,
10110101110010001111101111010010,
10111001101110000111101000101101,
10111011001010111110001101100111,
10111100000111001000000101001110,
10111100010001000010101110111101,
10111100011000011111111111000000,
10111100010001111000100010101101,
10111011110111010101111011111100,
00111000010100100000111000101001,
00111100000001111110100001000110,
00111100011000000000011011101000,
00111100011111011011100111000100,
00111100100010001001000100001011,
00111100010111101010000011010110,
00111100000001001111110111001000,
00111010100000010001000101111101,
10111011100011100100000010011110,
10111100000010011011010110111111,
10111100001000010111101111100000,
10111100000110001001001101111101,
10111011110001100110100000000100,
10111011100000010011000001011111,
10111011001111110111011010100000,
10111010110000100101100000100000,
10111010000100110101010100110011,
00110111000101010000101101110000,
00110110011100101100111010110011,
00000000000000000000000000000000,
00000000000000000000000000000000,
10111000110111000001111110110110,
10111010011110111011010010111001,
10111011101010110001101101001010,
10111011111001110101101110100010,
10111100000101001111010111000101,
10111100000110010000110111101111,
10111011110100110010100111100111,
10111010011010110101001111011000,
00111011110000101100111101111011,
00111100011000001100110010100001,
00111100100001101100000100101101,
00111100011111110010011000110111,
00111100001100110000000000111100,
00111011110100101100001111001101,
10111001111000111110100100101011,
10111011011001001111110011001100,
10111011101010101001001010000101,
10111011101000100010001111010011,
10111011100010000001111110011010,
10111011001111101101100010000110,
10111011000100111110101011001110,
10111010110110101101110110110010,
10111010010000101001111001111011,
10111010000001011000100001000100,
10110111000001010110000001100010,
00000000000000000000000000000000,
00000000000000000000000000000000,
00000000000000000000000000000000,
10110111111011011000111011101100,
10111001001011010011000001100010,
10111010100011001101011001001111,
10111011000001011011111010001010,
10111011100101101001010101001001,
10111011111000001101010101100100,
10111011111111110101000100011110,
10111011111101110110010010000101,
10111011110000100110100110011111,
10111011001010010110001101110110,
00111010100110010011100100101001,
00111011001001011001110101001000,
00111010110110100111110011111111,
10111010000001111110010101101011,
10111010110111111111110111010100,
10111010101101110010011001101010,
10111010101100101101011010000000,
10111011000011100110010111100111,
10111010111101000101010000000101,
10111010110000100010110111111011,
10111010000111110001111000011001,
10111001111110100010010100000010,
10111001100011011110010101100000,
10111001000000000011011110101110,
10110101110110010010010111111001,
00000000000000000000000000000000,
00000000000000000000000000000000,
00000000000000000000000000000000,
10110110000010101111000011011010,
10110111000011011100111101100101,
10111001000100011000010010100011,
10111010000100001111001001000011,
10111010100011110010011000111101,
10111011001001011111001100111000,
10111011010100100100010100001011,
10111011011100011110011111111111,
10111011011010010111011111011100,
10111011010000001010001000111110,
10111011001001010111001000101000,
10111010111010001111101101100010,
10111010100101001100011000011010,
10111010010010011110010100001011,
10111010000011000011010101101111,
10111001110100100110100011100001,
10111010001000111111110110010001,
10111010000101111110000101111101,
10111001100010111010000000110010,
10110111110010111011000110001111,
10110111001010110101011100001010,
10110101000001000010111101000000,
10110100100101011001001010000001,
10110101101010110011100010001101,
10110101110011001010110110001000,
00000000000000000000000000000000,
00000000000000000000000000000000,
00000000000000000000000000000000,
00000000000000000000000000000000,
00000000000000000000000000000000,
10110101000000010111111011011101,
10111001000001011100110111101111,
10111001100001011110111001001111,
10111001100010101101010011001100,
10111001100010111110101000100101,
10111001100011111000110010001111,
10111001100110100100010100101110,
10111001101000100110001110100000,
10111001100101110110110100101010,
10111000001100011011001100111100,
10110111111100001011010010100010,
10110111110011010001111110111010,
10110111110010110000010000010011,
10110111110100000000100010011010,
10110111101011111000000101001011,
10110111011001001111111001010010,
10110111001100000010001100100111,
10110110100010110000010010001001,
10110100111100101100100110111010,
00000000000000000000000000000000,
00000000000000000000000000000000,
00000000000000000000000000000000,
00000000000000000000000000000000,
00000000000000000000000000000000,
00000000000000000000000000000000,
00000000000000000000000000000000,
00000000000000000000000000000000,
00000000000000000000000000000000,
00000000000000000000000000000000,
00000000000000000000000000000000,
00000000000000000000000000000000,
00000000000000000000000000000000,
00000000000000000000000000000000,
00000000000000000000000000000000,
00000000000000000000000000000000,
00000000000000000000000000000000,
00000000000000000000000000000000,
00000000000000000000000000000000,
00000000000000000000000000000000,
00000000000000000000000000000000,
00000000000000000000000000000000,
00000000000000000000000000000000,
00000000000000000000000000000000,
00000000000000000000000000000000,
00000000000000000000000000000000,
00000000000000000000000000000000,
00000000000000000000000000000000,
00000000000000000000000000000000,
00000000000000000000000000000000,
00000000000000000000000000000000,
00000000000000000000000000000000,
00000000000000000000000000000000;