memory_initialization_radix=2;
memory_initialization_vector=
10111001000100000100011010011101,
00000000000000000000000000000000,
00000000000000000000000000000000,
00000000000000000000000000000000,
00000000000000000000000000000000,
00000000000000000000000000000000,
00000000000000000000000000000000,
00000000000000000000000000000000,
00000000000000000000000000000000,
00000000000000000000000000000000,
00000000000000000000000000000000,
00000000000000000000000000000000,
00000000000000000000000000000000,
00110101001111010001001101100000,
00110111011111110100000010001111,
00110111011111110100000010001111,
00110101001010100010101100001010,
00000000000000000000000000000000,
00000000000000000000000000000000,
00000000000000000000000000000000,
00000000000000000000000000000000,
00000000000000000000000000000000,
00000000000000000000000000000000,
00000000000000000000000000000000,
00000000000000000000000000000000,
00000000000000000000000000000000,
00000000000000000000000000000000,
00000000000000000000000000000000,
00000000000000000000000000000000,
00000000000000000000000000000000,
00000000000000000000000000000000,
00000000000000000000000000000000,
00000000000000000000000000000000,
00000000000000000000000000000000,
00000000000000000000000000000000,
00000000000000000000000000000000,
00110101100101110100001011001110,
00110111101001001101101000000010,
00110111111101110111001110001110,
00111000011100011010111111000011,
00111000011110110100100001101000,
00110111101011111010000010010110,
00111000001111100011011010101110,
10111001101101111010000110001100,
10111010001110011001011110110011,
00110111100100001001110111101101,
00111000010000000011110111101100,
00110110101110111011010101000101,
00000000000000000000000000000000,
00000000000000000000000000000000,
00000000000000000000000000000000,
00000000000000000000000000000000,
00000000000000000000000000000000,
00000000000000000000000000000000,
00000000000000000000000000000000,
00000000000000000000000000000000,
00000000000000000000000000000000,
00000000000000000000000000000000,
00000000000000000000000000000000,
00000000000000000000000000000000,
10110110101000110111011101001111,
10110101111000010111100001101101,
00110110101001110001000111111110,
00111000001100000111010110100011,
00111000111111110101010001000111,
00111001101000010110001010011000,
00111010001101000000111010010001,
00111010011010000010000001111111,
00111010100001110001110001111010,
00111010100110101110001111000010,
00111001110001001010001011111000,
10111001111100110000101101000001,
10111011000001011110011101100110,
10111010101011001111000010010001,
10111000110011010101010111101110,
10111000010101010000111100101101,
10111001101101001101100100100110,
10111000011000100000001110111101,
00110111101001110000111110010111,
00110101101001001101111010000011,
00110111100100101100011100101100,
00111000000100011101000100000111,
00110111100110010010010111010100,
00000000000000000000000000000000,
00000000000000000000000000000000,
00000000000000000000000000000000,
00000000000000000000000000000000,
10110110100110110111011010111000,
10110111011001101000000001100000,
00110101110010011101110100101111,
00111000101111011110100001101110,
00111001111100111100000000111101,
00111010011011100111110001101001,
00111010110111111100111011111010,
00111011110000111100101110100110,
00111011111001010010101110101110,
00111011111011010001000011110100,
00111011111000010011001101100000,
00111011111010110110000011001100,
00111011110010100101110110001001,
00111011010101001101001011001110,
00111011001001111100001110001011,
00111010101011011101110110010101,
10111001000101101010011110000110,
00111000110001011101000101100000,
10111010100000010001110011001100,
10111010101100011000111000010010,
10111001010110111100101001001010,
10110111101011010000101010011110,
00110111111010100101100010111110,
00110111100100100001000011000001,
00000000000000000000000000000000,
00000000000000000000000000000000,
00000000000000000000000000000000,
10110110011001101110010100100000,
10110111011101101000010101000000,
10111001000011101011100111011001,
10111001111110110001101000010000,
10111010001000100000011111011100,
00111001110001011100000111100010,
00111010100010001000011100100111,
00111011100101111010101010011100,
00111100001000110000101110101111,
00111100001100100010111100010110,
00111100010101111100111001001000,
00111100011000010101011010101101,
00111100001010010001011011000010,
00111011111000011110011010000001,
00111011011110110100000111001110,
00111011111111100011101001011111,
00111011110101101000100011111101,
00111010101101101001011001010110,
10111011011111010100010011000100,
10111011101110011001010101000000,
10111100000100001010100000011011,
10111011111001100111100000101110,
10111011010010010100101001001001,
10111010001010101101011100110010,
00110111101111110100101111000111,
00000000000000000000000000000000,
00000000000000000000000000000000,
00000000000000000000000000000000,
00000000000000000000000000000000,
10110100010001100011011001111111,
10111001110101010101000011000010,
10111001111001001001101001001010,
10111010011111010011100100100001,
10111001100000110011101100011011,
00111011000010010010000000001110,
00111100000010001010101101101100,
00111100001010010010110100011101,
00111100010101010000001101111000,
00111100011111110011100100011001,
00111100100001001110000001000000,
00111100001010010111011001011000,
00111100001000101010000110000110,
00111100001100010100111101000001,
00111100011100001010110000010011,
00111100001000101101000000101011,
00111011001111001011011110101010,
10111011010010001011100100010010,
10111011110011011000110111000011,
10111100000100000000010111011100,
10111100000011000110110100110100,
10111011111000100000001000001100,
10111011010000001100010001010001,
10111000100000010010000010111000,
10110101110101101001111100101101,
00000000000000000000000000000000,
00000000000000000000000000000000,
10110100100001101110100010100111,
10111001101001010110101001011101,
10111010100111111010001110000010,
10111010110010000111010001110011,
10111011001100101100111111011110,
10111011010110010110100001100010,
00111011000010000010010110110100,
00111011100011111110011100000110,
00111011010110010111000111101101,
00111011011010100100110000101000,
00111011110111100010010000111010,
00111100000100101000001000000010,
00111011111100100111011011011010,
00111011110010101010001001000111,
00111011000011100110101100101110,
00111010101100000000100100000001,
10111010010001001010111100111110,
10111011100101001001010111001111,
10111011101010011001110111011101,
10111011110110110001101010001010,
10111011110000100011100011000011,
10111011111000001101000111000000,
10111011110101100000100000100001,
10111011000101101011100000001111,
10110110000011011101110111100110,
00110110111010110101110011001100,
10110110000100111110010101111000,
00000000000000000000000000000000,
10110111100110011110010000011100,
00111000100101001111001000100111,
10111010000101000101001110110011,
10111011000111100100100010110010,
10111011000101110010111011101001,
10111010101010100001111011010111,
00111010000010110111101010111010,
00111011100000000011101100111100,
00111010000111111100001000100000,
00111011100010000100110111100100,
00111011111110110111100000000010,
00111011101000010001111011000101,
00111011100000100000101110111000,
10111011000001111011001101110100,
10111100000101011010101001110010,
10111100000110001111011100001111,
10111100100011001101101001010011,
10111100010011110111000100101111,
10111100010001001110000110010010,
10111100000001111011000110011110,
10111010111100110101100110001011,
10111011000100011110000101110111,
10111011101000011000000101011001,
10111011000001100000000110011000,
10110111100100111011001010000100,
00110110100000000110011110100110,
10110110100111000000000000010010,
10111000101001110001110100100110,
00110110110111001011000100000100,
10111001101010010001110011010001,
10111010011001001010010010011101,
10111010101110010011011000100000,
00111010100101000110010010110010,
00111001110000001011110010000001,
00111010100110001001100011100111,
00111011001101100101011111100101,
00111011100110100011001000011011,
00111100010000001010110111011001,
00111100000101110001101010011000,
00111011010011011011000010110110,
00111010110011101011111100110100,
10111011110001100100100100100011,
10111100011011111101000110110100,
10111100010111010111011000111010,
10111100011001101100001100011101,
10111100011111000100000101001101,
10111100001100111010100111001000,
10111100001100011010101010001011,
10111011100011100010110100010110,
10111010101111110001011100101101,
10111011000110001110111110010011,
10111011000001100000111101000111,
10111001010100111100010011111011,
00000000000000000000000000000000,
00000000000000000000000000000000,
00000000000000000000000000000000,
10110111110100001101111011100010,
10111001101101101000101001000010,
10111001101101001110111011110010,
10111001110010001000110001010001,
00111011011101010011010000101001,
10111001110000100110101001010111,
10111011010011011001110000001010,
10111011010011000101101100101111,
00111010111111110101110101001011,
00111011111111000110101010110101,
00111011100101111101100011001001,
10111010101000010001010010101100,
10111011101100000101100000111010,
10111100010001011101001110101011,
10111100100000100100001110101101,
10111100001000010110110101110101,
10111100000110101010110000010000,
10111100000100001100110011101110,
10111100001101001011111011101000,
10111100010000101110110111111101,
10111011110111101000010110011001,
10111011101000100001101100110100,
10111011100001110110011101010000,
10111010111101111000011000101000,
10111001110000111111011111000010,
00111000000101010101101001010001,
00000000000000000000000000000000,
00000000000000000000000000000000,
10111000001000010100110101111001,
10110111110100000010111001111111,
00111001001110111010001010001001,
00111001110001110000010110101001,
00111001101010100110100011100101,
10111011000010111000010011100011,
10111011111011101110000001111001,
10111011110111001010011100000000,
10111011100100001100100110011101,
10111011010011111110111000100000,
10111100000000110111001100111101,
10111100010011000010111000011110,
10111100100110110010001101010000,
10111100110000100000110011010001,
10111100110000011010110101101111,
10111100001101101111110110100001,
10111011101001010101010011110010,
10111011110000100011010000110101,
10111100010011101001111001111101,
10111100010010010010110110111010,
10111100001011000111001010110101,
10111100001100010110001001101110,
10111100000000001110110101011001,
10111010111110011100000000111011,
10111001000011101011000100010111,
00111000110110000101011000011101,
10110101100110010110011000101010,
00000000000000000000000000000000,
10111000100100111011111111100001,
10111000000100001010101110000010,
10111001011101000001100100111101,
00111010000010000111011011110001,
10111011001111111101000111101110,
10111100000011100101111110010001,
10111100011101001011101111111001,
10111100011100110000000000010000,
10111100011000001111010001001110,
10111100100011111000110001010101,
10111100101110011110101101111100,
10111100110100110110111001000111,
10111101000000100111000100010011,
10111101000001111001001100110000,
10111100111001011000000001001000,
10111100010001000010001101111001,
10111100000111100111000110001011,
10111011110101001110100100110001,
10111100000101101100101101000101,
10111100010100111100111010101011,
10111100001011111111000100010010,
10111100011010110000111101111001,
10111100010000101100111101001001,
10111011100000111001101100010010,
00111010000110001011111010101010,
00111001000001011101101010100100,
10110110001110000000101001001001,
00000000000000000000000000000000,
10110101110100111101000011010101,
10110111000011000000110011110110,
00111000110001110101001010010110,
10111001101001010001111111010010,
10111100000001010011001110011000,
10111100100100110011000000101111,
10111100101010010001111110000001,
10111100100000110101100101111101,
10111100100011001111001000111110,
10111100101110000111100100010010,
10111100110001111011111010111011,
10111100110001001011001110101011,
10111100110101011001011010111110,
10111101000100100110111100101001,
10111100111101011010011001100011,
10111100010110111000110010111111,
10111100000000001101000111100001,
10111011010001100011010101100010,
10111011010011010001100001010000,
10111011111101110010001111110111,
10111100000011011011101111010100,
10111100100010101011110100111110,
10111100100101111110100000101101,
10111011110100111010001010111001,
00111001111000001010001110011011,
00111010100011001101000100011010,
00111000011001000110010110100010,
10110100101011001110010101100110,
10110110101111110011111011010010,
10110110100100110000100010010111,
00111001001010101101100000100101,
10111010111010101011011111101000,
10111100010100101011110001111101,
10111100100111110101100100100101,
10111100101010110101001000111001,
10111100011011000101111101110101,
10111100100011011111000111000111,
10111100100001010101011110101100,
10111100000111101100111111100000,
10111011100111000000101101011010,
10111100100000111111000001110100,
10111100111001011100001100000110,
10111100110001011110111101010101,
10111100000010011110001101011111,
00111010011111000110000010000010,
00111011001001111100001011100101,
10111001110110101100111010111011,
10111011100010001001010001001000,
10111100001010111111110001011000,
10111100100101001000011111010100,
10111100100100101110101100101100,
10111011111000000010110111010011,
00111010111101111101010100010011,
00111010110000111001100000011111,
00111010001000010100011011010111,
00000000000000000000000000000000,
10111001010010101010100000101010,
10111001000110100010110010101110,
00111001011001101111000100010011,
10111010110000111110111000011010,
10111100010011110010010010011001,
10111100011110111001110001011011,
10111100010001110000101101110001,
10111100001100101101101010010101,
10111100001111111001111010001000,
10111011110110110000001111101100,
00111011100100000010000001111111,
00111010110101010100110100101111,
10111100010001110110011011110011,
10111100010111100010011010110111,
10111100000111100000010100110011,
00111011011100001011010100111110,
00111100000011101010010100001001,
00111011110011001000011111001101,
10111001101101011001011101011100,
10111011100001000001001100001001,
10111100010100110011001000011101,
10111100100011010000110100010000,
10111100100001100001011010110011,
10111011110001111101101111001100,
00111011001100000000101100110100,
00111010110110000110100100100010,
00111000110101101100010000011010,
00000000000000000000000000000000,
10111001110111110011101101010110,
10111010000101001011111000011000,
00111010011110000100100111010000,
00111001001010000011110010010111,
10111011101111001000000010010100,
10111011110001100110010101100001,
10111011100000100101001000010000,
10111011011000011100101101001001,
10111010010111100000110110111111,
00111011010001111100110100101011,
00111100010001101111110011101000,
00111100000000011101000101100110,
10111001100001110010110110100000,
10111011010100001111001000001000,
00111011011000000111001010001100,
00111100101001101000000111000110,
00111100010101100111111110001101,
00111011010100011010011001111111,
10111010111011101101001001101001,
10111011111110111100001000100110,
10111100010011100011010111011001,
10111100100001000000010000110011,
10111100011001110000000101010111,
10111011000110100010111010110011,
00111011101010011110011011100010,
00111011001011110111100010110011,
00111001110010001010101010111100,
00000000000000000000000000000000,
10111001010111110011011111001101,
10111010011110100001110000010011,
00111010100110001011010101110000,
00111010101110000101001011001100,
00111010000100000110101110001010,
00111011011101101100001000111000,
00111011101110010001001110011010,
00111011101000011000110111011011,
00111100001111000110001001111001,
00111100100111010010011111111001,
00111100110000010000010110000000,
00111100110001101101100010000010,
00111100100001100110101100011100,
00111011101010001111011000010010,
00111100010101000010000010001100,
00111100101101111011010010111100,
00111100001011101100010101100101,
00111000011000100001001010000010,
10111010110000000110101100000001,
10111011011001101011011111111001,
10111011101110101110101111110010,
10111011110011000001011001100100,
10111011100111100010001000010011,
00111011001010111100111010011100,
00111100000110011001110011010111,
00111011011111010111010110000111,
00111001111010000100000011000011,
00000000000000000000000000000000,
10111000110010010101110001110011,
10111010011001111000101000111010,
00111001101110111001011111010000,
00111011010110000010001011010011,
00111011111000010110010001100100,
00111100010011100111010101101011,
00111100010100010001000101010001,
00111100001111110000111101001100,
00111100100011100110101110001101,
00111100101111010010111000110000,
00111100111101110101000101010000,
00111100111100111001010111100011,
00111100110001111111001101100101,
00111100100010010100110110101110,
00111100100011001111111001001110,
00111100011111101010110010100101,
00111011101001101011011001100100,
00111001000011011110100100111010,
10111011001011001111101110001000,
10111010100001000101110101110101,
00111010010110001111000111001010,
00111011010010101110001010111000,
00111011101001010011011001010001,
00111100000111111011010010000101,
00111100010001110011110010010100,
00111011000110001001100111010010,
00111000110110100110101000000000,
10110100011011011100011010110011,
10110111101101011011111101101010,
10111010101111111101010000011000,
10111010110000100000101011001100,
00111011100011001010101001110101,
00111100010001001101111011100001,
00111100100010101101101101001111,
00111100100001110010100000011100,
00111100001100110011111111110100,
00111100010110000011001000101100,
00111100101000100001111100111010,
00111100101110001010101110000011,
00111100110111010001111111010001,
00111100101111100101010000001110,
00111100100010100001110111011000,
00111100010011010100010111011001,
00111100001000110011100100111010,
00111011101000101000010100010001,
10111001101000011101011000100111,
10111010111101010010100011001010,
00111001000011010001100100000110,
00111011100110010000010000110110,
00111100001001110010110011101010,
00111100011111111100100101001001,
00111100011101010110000011010111,
00111100000010101110110111100110,
00111010011100111010000100000010,
00111000001101100011001100110101,
10110101100101001001110000110000,
10111000000101110100011100011001,
10111010101101001001010101111000,
10111011001001010011111011010101,
00111011100010101101011000111101,
00111100000110100110101100010011,
00111100011110000111011000011010,
00111100011011101110101111111000,
00111011111111010110111110000001,
00111011111010010000100011101000,
00111100010001000100101100101111,
00111100011100001100010001110000,
00111100011110000001100101001000,
00111100010010000000101101000111,
00111100001000111001110011000110,
00111011111011011101010000010100,
00111011000111010101010000011010,
10111010001111001101101100000101,
00111011000100000001000011100011,
00111010100001001000101000011100,
00111011110110111101000100000000,
00111100001111010110101101110111,
00111100100000110100110101001100,
00111100100100111101111111010010,
00111100010110001111010001100110,
00111011110001010110001100110111,
00111010100000101101001010001111,
00110111101101000110111001111100,
00000000000000000000000000000000,
10111000001011001011110101111111,
10111010000111111010110000111000,
10111010101011011001111000001100,
00111011100110001000010100111001,
00111011110111001001101000001111,
00111100000100101110001011011011,
00111100001111111000010111101110,
00111011111010011101101011101000,
00111011001101111101011001101111,
00111011100100100110111101111110,
00111011000010000100011011001110,
00111011001000101101011110111111,
00111011100001000001110111111101,
10111001111100100100011011010000,
10111011010100101010001111000011,
10111011011010110111110110111000,
10111011101011110110110000100101,
00111011010001010111110010001101,
00111100000011010100001001010011,
00111100001011011000010101011101,
00111100011110011001011110001100,
00111100100100011111110000001011,
00111100101010101011010110000011,
00111100011010010000011001000010,
00111011100110010111001100011001,
00111010001010011001001101000110,
10110110010011000010100101101010,
10110101101000000111111001001011,
10110101110000101110101111110011,
10111001110111111000011100011111,
10111001000010000010001111111110,
00111010111101011100100001100010,
00111010111010100000000001111110,
00111011001110100000011000110000,
00111011100001011010100110111111,
00111011101000000010010110100011,
00111011100100010101110010010001,
10111010000100001110000010010100,
10111011010111110100001010100111,
10111011100000010001100011111001,
10111011100011010101110110111001,
10111011101110110000100111000100,
10111100000001010001010011111001,
10111011011101101010001011110011,
00111011000100001101011000001011,
00111011101101011110100101101101,
00111100001011111011100010000011,
00111100001010000000101111011010,
00111100100000000100101110111011,
00111100101100101001011111010101,
00111100101010011110110101100111,
00111100001110011011101110100110,
00111011010010100001101110111011,
00111000011101000111001101000001,
10110101100111100101000111110100,
10110101100110110111101001011000,
10110101100111110110111010100110,
10111001110111010110011001101101,
10111010001100101101100011010101,
00111010101110001100100110011001,
10111011000101000111110101111011,
10111010011000100111001100010001,
10111000100000001001011001111001,
00111011001111010111111101101111,
00111011001111100000111101001110,
10111010100110110001100111011001,
10111011010100010001000011111101,
10111011101110110001001011011010,
10111100001100110010101001110010,
10111100011001000101011111100100,
10111100010001001101111001010100,
10111011111010010110110001101110,
10111011110110000111000000111000,
10111010100100110000100001010100,
00111011101000011110101110111111,
00111100010001111010000101110110,
00111100100010100111010001011001,
00111100100011100110000100111011,
00111100010000000000101111100101,
00111011101101101110111001001110,
00111010101110101000010000010001,
10110111100111111100000100110110,
10110110000100100010010001000100,
00000000000000000000000000000000,
00000000000000000000000000000000,
10111000110011101011101000111101,
10111010101101101111000000001011,
10111010101101000010111110111101,
10111011101110000011011000101011,
10111100000000001101010010101011,
10111100000001101111110010001001,
10111011111111001110001011101101,
10111011111010010111000001111011,
10111100000110000100001010001010,
10111100001000111101110111011000,
10111100001001101100011000111101,
10111100010010101111011000000001,
10111100010100000010010011001110,
10111100010001111100101110001001,
10111100010000100010001100101101,
10111011111111100101110010010010,
00111001100110101100101000100110,
00111011101001010111010000101101,
00111100000110100100110011111011,
00111100010001000100011000000000,
00111100000111111100000011100010,
00111011101111110010110001100000,
00111011001011001011000010110011,
00111010011111000011100101011000,
10110111000110100110100010000100,
00000000000000000000000000000000,
00000000000000000000000000000000,
00000000000000000000000000000000,
10110111111001001100000101101010,
10111010110101110111001111100111,
10111011000111100011001000010100,
10111011100100110000110000110110,
10111011110110110000111101111010,
10111011110110100010000100101011,
10111011101110001010011000011011,
10111011110101010001101110010011,
10111100000011111100010100110110,
10111100001000011111011001000010,
10111100000011111010101111110001,
10111100000000011001101010001110,
10111011110101010010011000110110,
10111100000111010100101111001101,
10111100000110111010010110101001,
10111011101101000010010010111111,
00111010010000010001000101010101,
00111010101001111111110010000100,
00111011001110100101011011101110,
00111011011100011110100110101111,
00111011001111100001101111100001,
00111011000001101110010100001001,
00111010101100010110100001010111,
00111001100010101001101111000011,
00110111001011001100101011010111,
00000000000000000000000000000000,
00000000000000000000000000000000,
00000000000000000000000000000000,
10110110010100011011100011110110,
10110110011101010011111101111001,
10111000010010010110011011100010,
10111001000111000011011011111010,
10111001000100010011001001110101,
10111010010000010111101011011001,
10111011000100110100111100110000,
10111011011011000111100100100101,
10111011100001010001110101110100,
10111011101010011110100000100100,
10111011110101011011100111101101,
10111011111010001000011110010111,
10111011110001010110110000001001,
10111011100110011110111111010100,
10111011100111110011111111001111,
10111011011011111110101001011111,
10111011001011110000100110000100,
10111011010101101000001101110010,
10111010110011001111000101001000,
10111010001001011011010100001110,
10111001100010100000011101011100,
00110110110101110001101001001111,
00110110000011010001010011100010,
00110111001000011000000001010100,
00110111010000010000111100011010,
00000000000000000000000000000000,
00000000000000000000000000000000,
00000000000000000000000000000000,
00000000000000000000000000000000,
00000000000000000000000000000000,
10110100001011001010011000110100,
10110101101010011111011100010010,
10110110001011110101110001000100,
10110111100101011000000001111001,
10110111111001100001100010000110,
10111000010000010110010101000100,
10111001100010011111111010000000,
10111001101101110100111111111011,
10111001111111000010110100101000,
10111001111100010100000100010101,
10111010000000111001110001101100,
10111010000100111010011000111011,
10111010100010100101011101111011,
10111010101100100001101110011111,
10111010011001001010000101001001,
10111010000011101110101011101110,
10111010000000111010000000111100,
10111001000100001110101111101101,
10110110110110100111100011100001,
00000000000000000000000000000000,
00000000000000000000000000000000,
00000000000000000000000000000000,
00000000000000000000000000000000,
00000000000000000000000000000000,
00000000000000000000000000000000,
00000000000000000000000000000000,
00000000000000000000000000000000,
00000000000000000000000000000000,
00000000000000000000000000000000,
00000000000000000000000000000000,
00000000000000000000000000000000,
00000000000000000000000000000000,
00000000000000000000000000000000,
00000000000000000000000000000000,
00000000000000000000000000000000,
00000000000000000000000000000000,
00000000000000000000000000000000,
00000000000000000000000000000000,
00000000000000000000000000000000,
00000000000000000000000000000000,
00000000000000000000000000000000,
00000000000000000000000000000000,
00000000000000000000000000000000,
00000000000000000000000000000000,
00000000000000000000000000000000,
00000000000000000000000000000000,
00000000000000000000000000000000,
00000000000000000000000000000000,
00000000000000000000000000000000,
00000000000000000000000000000000,
00000000000000000000000000000000,
00000000000000000000000000000000;